<?xml version="1.0"?>
<opencv_storage>
<stage8>
  <maxWeakCount>14</maxWeakCount>
  <stageThreshold>-1.5023268461227417e+00</stageThreshold>
  <weakClassifiers>
    <_>
      <internalNodes>
        0 -1 616 -4239523 -6291461 -1143222289 -2 -1107341748 2136997887
        -1078198475 -1900281995</internalNodes>
      <leafValues>
        -4.5644235610961914e-01 3.5847052931785583e-01</leafValues></_>
    <_>
      <internalNodes>
        0 -1 7069 360207637 -167774403 -2756609 -16705 -1073872899 -4867
        -131267 -1077965636</internalNodes>
      <leafValues>
        -3.7920248508453369e-01 3.7116906046867371e-01</leafValues></_>
    <_>
      <internalNodes>
        0 -1 8449 -4194513 775876140 -154206450 244116605 -129
        -302678793 -8995012 -1930142231</internalNodes>
      <leafValues>
        -4.8887959122657776e-01 2.5409930944442749e-01</leafValues></_>
    <_>
      <internalNodes>
        0 -1 85 -134355021 -689520662 -23550 1836821082 -1476942081
        -185204737 1023376974 1224702719</internalNodes>
      <leafValues>
        -3.1696471571922302e-01 3.6445248126983643e-01</leafValues></_>
    <_>
      <internalNodes>
        0 -1 4800 78033973 -329384545 -1898784769 -260059665 1048048212
        -42342402 -1162767601 1937630574</internalNodes>
      <leafValues>
        -4.1695767641067505e-01 2.5171732902526855e-01</leafValues></_>
    <_>
      <internalNodes>
        0 -1 6212 135544701 534633847 -1385295881 1073549309 -1179177473
        -268435457 -1088934017 993791312</internalNodes>
      <leafValues>
        -4.9233150482177734e-01 1.8995398283004761e-01</leafValues></_>
    <_>
      <internalNodes>
        0 -1 7633 -823502221 -954050189 -5243081 -621581124 -2228481
        -1653080193 -7587270 -870548131</internalNodes>
      <leafValues>
        -3.1705173850059509e-01 3.3903279900550842e-01</leafValues></_>
    <_>
      <internalNodes>
        0 -1 8271 -1078215451 -1930449464 -1478496796 -1560301844
        -1093665449 1207649183 -1179288187 150800489</internalNodes>
      <leafValues>
        -4.9433287978172302e-01 2.2418935596942902e-01</leafValues></_>
    <_>
      <internalNodes>
        0 -1 1257 -49201 -411109443 -353539346 1667299835 -546877595
        2009270391 -176839544 -112853058</internalNodes>
      <leafValues>
        -3.4180784225463867e-01 3.0337876081466675e-01</leafValues></_>
    <_>
      <internalNodes>
        0 -1 232 341185909 -34165123 -2152451 -85430 827291133
        -1074790401 -268570753 -288537515</internalNodes>
      <leafValues>
        -3.6607816815376282e-01 2.7920722961425781e-01</leafValues></_>
    <_>
      <internalNodes>
        0 -1 7274 -1660189943 815800229 -155800689 -106565907 891119029
        857997165 -168695297 888657915</internalNodes>
      <leafValues>
        -3.1670850515365601e-01 3.2971230149269104e-01</leafValues></_>
    <_>
      <internalNodes>
        0 -1 5688 1491980721 1360521687 1069152255 749400059 -1997668937
        -1987093009 -722012232 -1107361862</internalNodes>
      <leafValues>
        -2.8369906544685364e-01 3.6315405368804932e-01</leafValues></_>
    <_>
      <internalNodes>
        0 -1 104 -123547990 2092409787 -124108246 -131898094 -623314707
        -2240593 1213941824 1081204036</internalNodes>
      <leafValues>
        -6.0752546787261963e-01 1.7498247325420380e-01</leafValues></_>
    <_>
      <internalNodes>
        0 -1 1940 -1212424217 -290522241 1436800492 -323289882
        -2047484835 -947930310 33109285 -1129122027</internalNodes>
      <leafValues>
        -3.6772489547729492e-01 2.6738122105598450e-01</leafValues></_></weakClassifiers></stage8>
</opencv_storage>
