<?xml version="1.0"?>
<opencv_storage>
<stage3>
  <maxWeakCount>12</maxWeakCount>
  <stageThreshold>-1.3282845020294189e+00</stageThreshold>
  <weakClassifiers>
    <_>
      <internalNodes>
        0 -1 496 -2029651087 -10168588 1125119835 -203557904 -521846043
        -1134039821 -30708921 -46444799</internalNodes>
      <leafValues>
        -4.9862951040267944e-01 3.2858258485794067e-01</leafValues></_>
    <_>
      <internalNodes>
        0 -1 6795 268623029 288483408 -2116821025 527949758 2686143
        -1786775105 -790498593 889192446</internalNodes>
      <leafValues>
        -4.7802853584289551e-01 3.3841454982757568e-01</leafValues></_>
    <_>
      <internalNodes>
        0 -1 4809 -5876719 -36322352 -1119007297 2068936607 -133422075
        -311206572 -546754801 -1149669569</internalNodes>
      <leafValues>
        -3.8608837127685547e-01 3.7744358181953430e-01</leafValues></_>
    <_>
      <internalNodes>
        0 -1 456 -2002101072 -722411545 -1620623415 -176833237
        -1968711751 -290588743 -1829563910 -1392530769</internalNodes>
      <leafValues>
        -2.7891898155212402e-01 4.7718405723571777e-01</leafValues></_>
    <_>
      <internalNodes>
        0 -1 1549 -1460995073 -1310135581 -709366373 -440319776
        -1206781441 -1427399768 -907980419 -867741484</internalNodes>
      <leafValues>
        -4.1716113686561584e-01 3.4315264225006104e-01</leafValues></_>
    <_>
      <internalNodes>
        0 -1 6718 -134217743 -573147740 -145416707 -720024084
        -1224998927 28035568 914210747 364708336</internalNodes>
      <leafValues>
        -4.7399732470512390e-01 2.8964847326278687e-01</leafValues></_>
    <_>
      <internalNodes>
        0 -1 699 2115032040 -272392788 -294281333 2142962941 1337113770
        -709992545 -1405876017 -1088726561</internalNodes>
      <leafValues>
        -2.8826367855072021e-01 4.2498171329498291e-01</leafValues></_>
    <_>
      <internalNodes>
        0 -1 7521 -19080468 -41365419 1152275693 -52695961 -2112116728
        -1472611518 -2132113172 -2117352639</internalNodes>
      <leafValues>
        -4.1226810216903687e-01 3.0797982215881348e-01</leafValues></_>
    <_>
      <internalNodes>
        0 -1 2570 -866218796 -10632614 -603070465 -9305230 -464516064
        861147216 -2065949953 2116114035</internalNodes>
      <leafValues>
        -4.7877559065818787e-01 2.5530347228050232e-01</leafValues></_>
    <_>
      <internalNodes>
        0 -1 25 -747952717 1905838288 1022373104 1164173877 -621158449
        -270042369 -864860017 -1062485825</internalNodes>
      <leafValues>
        -3.0216798186302185e-01 3.8965728878974915e-01</leafValues></_>
    <_>
      <internalNodes>
        0 -1 2310 -1143013634 -201360813 436249344 1072903955
        -1560621842 1692362940 540702127 1363899207</internalNodes>
      <leafValues>
        -5.0899219512939453e-01 2.2958147525787354e-01</leafValues></_>
    <_>
      <internalNodes>
        0 -1 5222 1480872020 -886724 419519736 -12968888 -69603348
        -7851777 -60433763 -1207418208</internalNodes>
      <leafValues>
        -4.5003280043601990e-01 2.6588335633277893e-01</leafValues></_></weakClassifiers></stage3>
</opencv_storage>
