<?xml version="1.0"?>
<opencv_storage>
<stage5>
  <maxWeakCount>15</maxWeakCount>
  <stageThreshold>-1.7123807668685913e+00</stageThreshold>
  <weakClassifiers>
    <_>
      <internalNodes>
        0 -1 1254 2138768345 -2372133 -394265859 -547496422 -13393357
        -3060947 -17368070 -1898447308</internalNodes>
      <leafValues>
        -4.4128113985061646e-01 3.4046158194541931e-01</leafValues></_>
    <_>
      <internalNodes>
        0 -1 6792 34730033 -1636535951 498146903 -579248583 193552116
        -1077155444 193531035 -844009333</internalNodes>
      <leafValues>
        -3.8565123081207275e-01 3.5346317291259766e-01</leafValues></_>
    <_>
      <internalNodes>
        0 -1 3093 -598453924 -9416683 2084603262 1650476400 -84078593
        -539793134 1817976703 1598541487</internalNodes>
      <leafValues>
        -4.2621052265167236e-01 2.9127880930900574e-01</leafValues></_>
    <_>
      <internalNodes>
        0 -1 7977 -117704733 -244121680 -295459 -176951563 -1612449286
        -1468010536 -544997943 -724579111</internalNodes>
      <leafValues>
        -2.2403219342231750e-01 4.8710194230079651e-01</leafValues></_>
    <_>
      <internalNodes>
        0 -1 8186 -356599634 -1365553810 -1166835727 166531000 -61030724
        83099477 -1107492865 -1156878437</internalNodes>
      <leafValues>
        -3.1692981719970703e-01 3.6481940746307373e-01</leafValues></_>
    <_>
      <internalNodes>
        0 -1 8430 1196949668 -168486356 -104606582 -50368223 -79702017
        -274001358 -134346321 -1397024721</internalNodes>
      <leafValues>
        -4.3657472729682922e-01 2.4074828624725342e-01</leafValues></_>
    <_>
      <internalNodes>
        0 -1 6183 2035151696 -571482114 -762081569 -138895662
        -1597997056 -574861300 -158414840 -234762606</internalNodes>
      <leafValues>
        -4.1079515218734741e-01 2.7448144555091858e-01</leafValues></_>
    <_>
      <internalNodes>
        0 -1 127 -1146113900 487150386 -49219202 -1211106225 -103745608
        -2000940872 -1956474881 2087802233</internalNodes>
      <leafValues>
        -3.6621481180191040e-01 2.9513525962829590e-01</leafValues></_>
    <_>
      <internalNodes>
        0 -1 687 -531705352 -168886898 -1644523571 -1792131538
        2022115477 -62449333 28705151 1490753855</internalNodes>
      <leafValues>
        -3.7150326371192932e-01 2.8133112192153931e-01</leafValues></_>
    <_>
      <internalNodes>
        0 -1 913 -366018562 -555028738 -2055778894 -185383374 -717968388
        -88306710 597160798 1356063815</internalNodes>
      <leafValues>
        -4.0446227788925171e-01 2.6466935873031616e-01</leafValues></_>
    <_>
      <internalNodes>
        0 -1 3828 -860839708 -539247957 -972367396 -1885821024
        -2130693975 -1347456345 201261541 -1883515423</internalNodes>
      <leafValues>
        -4.4167423248291016e-01 2.1258677542209625e-01</leafValues></_>
    <_>
      <internalNodes>
        0 -1 1367 -1945441664 -98044191 -1364279764 -556931224
        -390410056 -327201691 -1077749317 -21496039</internalNodes>
      <leafValues>
        -3.0248755216598511e-01 3.3312124013900757e-01</leafValues></_>
    <_>
      <internalNodes>
        0 -1 3580 -270086812 -1017428129 -553102031 2066751066
        -1670455919 -1661454858 -1104525035 679443063</internalNodes>
      <leafValues>
        -4.5892104506492615e-01 2.2845074534416199e-01</leafValues></_>
    <_>
      <internalNodes>
        0 -1 8185 115000960 -1610235132 -1496398861 140274351 -708068356
        -981875880 -1949598757 -1067740451</internalNodes>
      <leafValues>
        -5.0258535146713257e-01 1.9595435261726379e-01</leafValues></_>
    <_>
      <internalNodes>
        0 -1 7413 2002652180 -36417476 -1761151495 861673928 -413855745
        -179676584 -669803765 1814374146</internalNodes>
      <leafValues>
        -4.5158419013023376e-01 2.1287764608860016e-01</leafValues></_></weakClassifiers></stage5>
</opencv_storage>
